00000110101100110010010011110111
00010000110000110000100011011010
01000011110001111100111010100111
00111111101101011111101011000101
11100100101110010100001111011110
00000010101110011110110010110100
00110110001011101011111000100001
11110011001101110001110000000111
11101011010001100010100100111010
00011110000101001101111100010111
10101101001010110010001100001101
10011011000011010010100110101101
00001000010001001010000101000101
00111101000000010011100111101001
10101001110000011111000110011111
00011010101001010100011011100010
00010100010011000010001000100100
11010101110010010011011000011000
00001000110101000011000111010000
10111100101110011101101000100110
01010011101111111110110000100001
11001101101100011110110100000001
00100110101111001110101000111010
00011100110000111100010000101110
10100001000101011101001000001111
00001111001101000100010100110010
00011011110000100010111001000011
10100100101100011101011011100111
00100010110010100010111011011000
11101101000111010000111111100011
11100101000101101100100100001011
00100000001000111111001011010101
01000110111101001011010110011000
00011111101110101101000011010001
10101011001100100001110100110011
00010101010000011111111100110110
00001010101100011110101000100111
00011101000011000011011001001011
11000111110111001110111100101100
00001010001100000010011000100000
11111110101111001101011011111000
11101110001100011101000110111010
11110101110111100010110111010110
00000100000110111110000100111011
11011010111101010001111000001000
11011000001101011001001010111111
00111111000110000000100110111011
01000110000101000000001111110001
01011011101111001111101110110101
00100101101101010010010001001001
11010100110010101010111011000010
11101111001101010001010011001011
00101010111010111111111000011110
01001011100111001011101000001111
11110011001110110011110111101100
00111011101011111111111011110111
10110000001001011010000100111011
00100111111011010010001001000010
01001010001010110001011011000001
01000001000010111101101111111100
10100000001010101110111100001100
11001110000111000101000100001110
11011110101111001101101000101000
10011111001011101011101100010001
00000001000100000001001000010011
11100001001000101011001111111001
11110111000100100010101000101000
00111001110011111111000111011111
00001011111101010011000111100101
00011001000000001110001010100100
11110101111011110011100011111001
11100100101111010001010001000001
00110000001110101100000000011011
00010011110000000001011100011011
11000000001000101010111000111000
00101111111111110010110000000010
11110101001111110000111010001101
10110011001011010000001111111010
11010011111110110001101100110001
11001011001010010011001111010011
