0001000011110001
0001000000011110
0000000100000000
0000000011110001
0001001000000000
1111000011111111
0001000100001111
0010000100011110
1111111011100001
1111000100000010
0000000111110010
0001111100011111
1111111000001111
0010001011110001
0001000111110000
0010000100011111
0000000000001111
1111000111111110
0000000000000001
0001111000010000
1111000011101110
0001110111100000
1110000000011111
1111111100010000
1111111100000001
0001000100000010
0000001011101111
0010000100000001
1111111111100010
1100110011101110
1110000111111101
0000111011110001
0000111100100001
0001000100010010
1111111100010001
0011000100100000
1111000100010011
0000110011101111
1110110011101110
1111000111111110
0001000100011111
0000111100001111
0001000011111110
0101010100110001
0000111000010011
1101101111011100
1101110000001101
1111000111111111
1111000100001111
1111001000010001
0000001011110000
0011001100110011
0000001001000100
0001000100001110
1111110111000000
1111111000011101
0010000011110001
1110000000100010
0001111111110001
0010010000110000
0001001100110010
1110111011111111
1100111100001101
1111000000001110
0000000000010001
0010111100100010
0000001011110001
0111010100110100
0100010101110111
0001000100100001
1110000000001111
0010111011101101
1111000000010000
0000000100100010
0010000100100001
0111011001000011
0111011001110111
0001001001000101
1100000011111110
0001000100001101
0000000000000000
0011000100010011
0101010000100000
0110010100100110
0111011101110111
0100000100010011
1101111100000000
0000000111101101
0011001011111111
0010001100110100
0010010000010001
0100000100100011
0101011001110111
0010001100100100
0000000100100001
0000001011101110
0010000100101111
0011001000010010
0000001100010010
0011000111110000
0010010101110110
0001001000010010
0001000000010100
0001000111110001
0000000000101110
0010000100110000
1100111100010001
1111101110101100
0000010001010101
0100010000110010
0000111000110000
0001111100010000
0010000111101111
0000000100000011
1010111011011110
0000101110011010
0000000101000011
0001000100000000
0000000000010010
1111000100011101
0001000111110001
1111110011100010
1001110111101111
0001101110011001
0001000100100101
1111111011111110
1011110011001111
0001111100000000
1110000100011111
1101110011011111
1001110110111011
0001111010011001
1111000100100011
1101111100001111
1111101111010000
1111111111110000
0010111100011111
1100110100001111
1011101110111110
0001111011001101
1101000000010001
1101110111111111
1110111111011111
0000000011111110
0000000100000000
1111110111110010
1110110011001110
0011000000001110
0000111100010010
0001111011101111
0000000111100000
0010001000000000
0000000000011111
1111111100010000
1111000011111110
0010001011110000
0000111000100010
1110000000001110
0000111111111111
1111111100010001
0010000111110000
0000111000010010
0001111111111100
0001000100001111
1111111100100000
1110111100001100
0000001100000001
0000001000000000
0001000000001110
1110000111110000
1111111100010001
0010001111110000
1101000011100001
1111111111111101
0011001000000010
0001000000000001
0010000111110000
0001000011110010
0001000000010011
0000001000100000
1101111100010010
0000000100000000
0011010000000001
0001000100000001
1111000111100001
0011001000001111
0010010001000000
0001000100000001
0000111011010001
0001000000010001
0000001100000000
0000111100010001
0000111000010000
0010010000111111
0000000100100011
1111111111111111
1110110111101101
0001111100010001
0010001100100001
1111000000000010
0010000100100000
0100001100010000
0001001100100001
0000111011110001
0000000100100001
0010111100100010
0001000000000001
0001000100001111
1111000111100000
0100001011110010
0010000100100100
1111111011110010
0000000000110000
0001111100011111
1111000011111111
0001111100000010
1110111100010000
0010111100100001
0001001000100011
1111000000100000
0011001100010010
0010000111110010
0010001000010000
1111111100010001
0000000000101111
0000000000001110
0001000111110011
0010000100101111
0011001101000011
0000000100010011
0010111000010001
0001000111100000
1110000000100001
0010000000100000
0011001000010010
0100010101010001
0101010001000101
0000010001000100
0000111100100001
1111000100010010
1110111011100000
0000000100100010
0010001100010010
0010001100110010
0101010101000100
0010001000110011
0010111100001111
0010000011111110
0010111111100001
0001111111100000
1111111111110000
0000000100010000
0011001011110000
0000000000010011
1110000011100001
1111111100001110
1111000000000000
1111111100001110
1111000100000001
0000111100001110
0010111100101110
0000000100100001
1110111100000000
0000000100000010
0010111011110001
0000111000010001
1111000000001110
0010001000001110
1111111100001111
0000000000100000
0001001000000010
1110111000000010
0001000100101111
0000001011111110
0001000000001110
0001000000100010
0010001000100000
0000111000010010
0010000000001111
0000111111101111
0001001000100001
0000111100001111
0011001000011111
0001000000111111
0001111100010011
1111000100001101
1111111111110000
0000111011100000
1111000011111111
1111111111110010
0000001000011110
0101001001000001
0010010000110011
0001001000010011
1110111100100010
0001000100101110
0001000100010000
0000000100000001
0001000011101111
0110001100100010
0110011001110110
0011001100100101
0000000111110001
0001000100001101
1110000111110010
0000111111101111
1110111011011111
0101010000001111
0011011000110101
0010010000110100
1101000100010011
0001000111101110
0000001011111110
1111111111010001
1110111011011101
0001000000001111
0101010100110101
0011001101000010
1111111100110100
1111000111011101
0000000000000000
1111000011100000
1110111011011110
0100000100000000
0010010000110000
0011001100110010
0001000000100001
1110111111111110
0000000000010000
1101111111111111
0010111011101101
0000111100101111
0011001000100010
0100001001000000
0000111100010010
1111111000001101
1111111111111111
1111000011111111
0001001011111111
0010001000101111
0011001001000011
0010001100010011
0000000000010011
0010000111011101
0001000000000010
0001111111110000
0010000011110001
0000000011110010
0001000000110010
0010001000001110
0001001000100010
1111000111001110
0001000100011110
1111111111011101
1110000100100001
0001111111010000
1111111100100011
0010001000011110
0011010101000101
1111000111100011
1110000100000001
0001111100001101
1111111111111111
0000111011001110
1011110111100011
0100001011111101
0101010101000011
0000111111110010
1110000111110010
1111110111011110
1011111100001110
0001111011001011
1101111100010001
0010000111111100
0100010100110100
1111000000000011
0001111100000000
1111110111111111
1011111011111101
0100001000001101
1100110100100011
0001111011011011
0100010100100011
0001000000000010
0000000100000000
1110110111111111
1100110000001101
0111001100101111
1100111000110100
1100110011001011
0100001000001110
1111000100010001
1110111011110010
0010000011101111
0001000100000000
0100010100110010
1010111100110100
1100110011001011
0010000011111110
1111001000100100
0001111100000000
0010001011110001
0001001100100000
0101011001000100
1010111000110100
1110110010101011
0011001011111101
1111001000110011
0000111000000000
0011111100110000
0110010101010001
0101010101110110
1110110100010100
1110111010111110
0011000011110000
0000001100110001
1111111100000000
0001000000110001
0110011001000001
0100010101110111
0000111100000001
1110111011111100
0100001000010010
1111111100010011
0000111011110000
0000001100011110
0111011101010010
0100011001110111
0000111000010010
0011000100010010
0010010100110011
1111000000100100
0000111111100000
0010001100011111
0110011100110100
0100010001010111
0011000100010000
0010000100110010
0010010101000100
0001111100100001
0001111011110010
0100000100001111
0111011101100101
0001001101100111
0011001100010011
0100000100100011
0011001000100101
0010111100000011
0000000000101111
0100010100100000
0111010001100110
0011001001010011
0011001000110001
0001010100100100
0011010000110010
0001111100010000
0001111000000000
0011001100000001
0100001001100100
0010001001000101
0010001100010100
0010001001100011
0000001100110000
0001111000100010
1111000100000001
0001111100011111
0010010001000100
0010001000100101
0101001101000010
0000010001000110
0000000000100010
1111111000001111
1110000000001110
0000111100001110
0100000100100000
0110010101000010
0100000101000011
0001111100100001
0001111000010001
0000000111101111
1111000011101111
1110110011101110
1100101111001011
0000111011101100
1110111100000001
0000111011111110
1110000011111110
0000111011110010
1111111100001110
0000000000001111
1001100111011101
1100101110101011
1101110011101110
1111111100011111
1111000000010000
1111000100001110
0010001011101111
0000111100100010
0000110111100000
1101110111111110
0001000011111110
0000111100101111
1110001000001111
1111000011100000
1110000111110000
0010111111110000
1111111111110000
0010000000001111
0000001011110000
1110001000011111
1111111011111110
1110111011100001
0010001000011111
1111001011100000
0001000100010001
0001111111111110
0010001000001111
0001001011101111
0010111100101110
0000000000010001
0001000000011110
1111000100101111
1110111011100000
1111111100001110
1111111100000001
0001000100011111
1111000000001111
1110000000000001
1110000011110001
1110000100000010
0000000100000000
1110111111101110
1110111011101110
1111111111111111
1110000111011111
1111000100010000
0010000000101110
1111000000010001
0000001000001111
0000001000100001
1110111000001111
1111110111111101
0000111111001100
0000000111111111
0010111100010000
0010000111111111
0000000111110000
0011010000100000
1110000000100010
1110111111110000
1101111111001101
1111111011110001
0000000000100010
0000001000100010
0010000000110001
0101001100100000
0001001100100100
1101000011011111
1111110000001101
1111111011100000
1111000000100001
0001001111110000
0010001000000000
0101010000110011
0001010000110101
1111111100000001
1101111011111111
1111111111101101
1111000100010000
0000000100110000
0000111100010000
0110001000110000
0011001100110110
0000000100110010
1011110111111111
1110000111101110
0000000100010000
0011000011110000
0010000100001111
0111010100110000
0111011001110110
0000001000010011
1010110000000000
0010111111101100
0000000011110001
0010000100100000
0011000111110011
0011010000100011
0101011101110110
0001001000100100
1011111011111111
0001000011001011
0001111011100010
0011001000100011
0000001100100001
0011000100000000
0100011100110110
1110001100100100
1010111011101110
0000111011001011
0010000100010000
0001000000000011
0000000111100000
1111111100001110
0101010001000001
0011000100110101
1011111111101110
0000111111111011
0000000100000010
1110111100011111
1110111000011101
1011101111001101
0100010100110010
0100001001000010
1011110111110001
0000000011011100
1111000000000010
1100110100010000
1011111011011110
1010100110011001
0100010101100000
0001010001010011
1111111000100001
0010000111111110
0000111000010010
1100110111100001
1010101111001011
1111100110011001
0011010101100010
0011010100110101
1101110111110000
1110111100001111
1111000000001111
1010111011010000
1001101111001100
0001110110011001
0110011101100111
1111001000010100
1110110011101111
0001000111111101
1111000011110001
1011101111001111
1011110011001110
0100001011001001
0101010101110111
1100000000010010
1100110010101111
0000111100010000
0000111000000001
1110111111110001
1100110111011110
0111010011111101
0100011001010111
1100101100000000
1101101110101110
0000001000001111
0000000000011111
0000000111110011
1100110111111111
0111011000111110
0001001101100111
1101111011000001
1101110111011101
1111000100000000
0011001011101110
0000000100010100
0001111111110000
0110011000110011
1111001101000111
1110101111000000
1110000011111111
1111001000010010
0000000000000010
0000000111110011
0001111100010001
0110011000100011
1111000100110110
1110111111011111
1111000111100000
0000111101000011
0011000000101111
0000000100010001
0000000111111111
0011001100110001
1100110100110011
0001111111101101
0010001000000000
1111001001000100
0001000000001111
1111001000100010
1101000011100010
0011000011100001
1100111000010010
0011111011111100
0010000100100001
0000000000100010
1111111000000010
0001001000100011
1110111000111111
1100111000001111
1101110111101111
0011001000000000
0001001000010100
1111000100000001
0010111100010001
0011001100010011
0000001100010100
1101110111101111
1101111111101100
0000001100000000
0001000000110010
0010111100000001
0000111100011111
0011000100000000
0011001100110011
1100110000000000
1110110111011100
0010010000110011
0010000000010011
0001000100000010
0000111111100001
0001000100110010
0001000100100100
1100000000000001
1111000111111101
0100001000010011
0010001000010001
1111001011100010
1110000111110000
0010001100001111
1111001100100001
1101111100010010
0000111100000000
0011001000010000
0001001000110010
0001000100001111
0000111011110000
1111000000001111
1111111100010010
1111111011101110
0000111111011110
0001000000010011
0000000100010000
1111000011110010
0001111111100000
1111000011111111
0001000100010000
1111000100000010
0001000100110010
0001001101000101
0001001000010010
0000111000010000
1110111100101111
0000000000001110
0001000011110001
0011001100010010
0010001000100010
0010000000010001
1111000011110010
1111000011100000
0001000100101110
0001111100000000
0010111100000001
0010000111110000
1110001000100010
0001111100100001
0000000100001111
1111000100001111
0001111111100001
0000000100010000
1111111000010000
0001000111100001
0000111111110001
0000000100011111
0001111011100010
0010111111101111
1111000100010000
0000111100010001
0000000000010001
0000000111111111
0000111000001111
1111111111100000
1111000100101111
0000001000011111
1111000111100000
0001000100000000
1111000100000000
0010001100000001
0011001000110001
0000001000100010
0001001000001111
0000001011111111
0000000011111110
0001111100011111
0011001000101111
1110000000001111
0010000111110001
0011000100110000
0010000000010011
0001001000101111
0000001000011111
0001000100001111
0000111000011110
1111111111101110
0001000111111101
0010000101000001
0000001000100100
0010000011110000
1110000111110001
1101111100010000
0001111100011111
0001111000011110
0001000000001110
0100000100010010
0011001000110011
0000000000000010
1111111111100010
1101110111010000
0000111111001110
0001111111010000
0010001100100001
0001001001000100
0011000101000010
0000111100000000
0000111111110000
1111110011111110
1101111011011110
0000110111111111
0011001000010010
0000111100110000
0001111100010001
0001000011110001
1110111000001111
1100110011011111
1101110011101011
0001000111101101
0001001000010001
1110110100000010
0001000011100001
1110111100101111
0000111011111111
1101101110101111
1101110111111100
1111001000001110
1111110111111101
1100111111110000
1111111111001100
0010000011100000
1110111000010000
1100101110101100
0000111000001100
1110111100000001
1100101111001011
1110110011011110
1111111011101101
1111111000000000
1100000000000001
1100111111001011
0100000100010000
1100000001010110
1011100110011001
1110110111101101
1101111111011100
0000000000001110
1111110111100000
0001111111111101
0100001100100000
1011111100110111
1100100110011001
1110111111001101
0000111011101110
0000111011111101
1101110111101110
0011000000001110
0101010101000010
1100111100100111
1100110111001011
0000000100000001
0011001100010010
0001111111100000
1110111111111111
0001001100001110
0101010101100011
0000001000110111
1111000011011101
0011001100110001
0101001000110010
1111001000010000
0000000111110001
0100001100100000
0110010001010100
0000010101110101
0010000000010000
0011001100110011
0010001000110001
0000111100010000
0000000011111110
0110001100100010
0110010101010100
0100010101100110
0010001000010011
0011000000000011
0001001100111111
0000111100010011
0000000111101111
0110001100000001
0110010101010100
0100011101110110
0010010000110101
1111000000100010
1111001011101110
0000000111110010
1110000100101111
0101001000001101
0110010101100101
0101010101110110
0011001001010011
1111111011100000
1111000011011111
0010111111101111
1100111100011111
0100001000001101
0111011001100110
0101010101110111
0100001100100101
1111000000000010
0001111111101111
0010000111110010
1100000100100000
0001111111111100
0111011101000011
0101010001100111
0010001000100101
0001111011100000
0000000000001111
1111111100010000
1110000011110001
1111111011001011
0110010000110010
0100001001000111
0001010001000100
0010000011110000
0000000111100001
0001111100010010
1110111011111111
1110110010111101
0100000000011111
0000000100100010
0000001000010010
0001001000100010
0010001000000000
1111000011110000
0000111000101111
1011110110111111
0001111011001101
0010000100010010
0001000000101111
1111000100000011
0001000000010011
1111000011100011
1100000000001110
1011110011001101
1101111011011110
0010000011110000
0000001000011111
0000010000100010
0010001100010000
0000111100000001
1110111100000000
1110101111011110
1110111011101101
0000000100010000
1111000100001111
0011000100010000
0010010000110010
0001000000000010
1110000000000001
1110111011111110
1111111011011011
1110111111001100
1110111111010000
0011010000001111
0011001101010010
0000000000001111
1111000000000001
1100110111001110
1100111011001011
1111110111101110
1110111111001100
0011001000110011
0010001101000100
1110000000100001
1110000100001111
1110111011011101
1110110011011011
1011111011011011
1110111111011110
0010001000110011
0001000000100001
1111111100010010
0000111011100001
1110111111100001
1101110011001111
1100101111101011
1100101111001100
0000000100101101
0001111100010010
0001000111111111
1110111100010001
1111000100010000
1110000011111110
1101111111100000
1111110011111110
0001111100010000
1110001011110000
0001000100010010
1111111100011110
0001000011110000
0000000111100001
1110111000000000
0001110100010000
0001000100010000
1110111111110000
1111000000000000
0010111011110001
0010000000100000
0000000111110000
0001000100001111
0001000111111110
0010000111110000
0001000100001111
0000000111100010
0010000000001111
0001111100001111
1110000100100010
0001000111110001
1110111111111111
0001000111111111
0000000100001111
0010111000000000
0001000011111111
1111111000010001
0011000011110010
0011001001000100
0010000100010011
0011001000010100
0001000000010010
0000000000001110
0010111111100010
0010000000001111
0010000100010001
0011010001000010
0011010101000100
0010010100100110
1111111100100010
1111111100000001
1111111000011111
1111000000010001
0110001001000011
0010010101010011
0001000100010011
0000001000011111
1111000011100001
0000111111110000
0010111111111110
0000000100011111
0010010000010011
0010001101000011
1100111011100000
1111111011001110
1101111111011101
0000000100011101
1111000100001110
0010001100010000
0010001101000100
0000000100010001
1111111011111110
1101111011011101
1101101011001100
1111000011011110
0010111011111111
0100000100100010
0011000100010010
0001111100010001
1110111100001111
1110101111001111
1011100110101100
1110111011111011
0000000100000001
0100001001000001
0001001000100011
0010000100100010
0001010001000101
1110111011110000
1001101011011110
1111000011011010
0011000000010001
0010010001000010
0001000101010100
0101001100101111
0010011001000110
1110110011000001
1001100110111101
0001000011001010
0010111111110000
0010010000110011
0000000000110100
0100001100011111
0101011101110101
1110111011111111
1010100111001011
0000111111011001
0000000100001111
0101010001000011
1110111100000001
0001111011101111
0101011101110101
1110000100110010
1010101111101110
1111000010101010
0010000000001111
0001000001000001
1100000000010001
0001110110101100
0011011001010010
0100001000100101
1111000100010001
0001000110111101
0000000000000001
0010111100000010
1100110111011111
1110101010101001
0100011001100100
0101001100100101
1110000001000010
1111000100001111
0010111100011110
1110000100010100
1100111100000000
1111101110011011
0110011001010010
0100001001010010
0001001100100101
0000111100000010
0000000011110000
1110000000010011
1010110011111101
1111110111001011
0101010100110010
0001001100100011
0011001100010011
0010000100010011
0001001000010001
1101110100010001
1101110011111111
0000110010101101
0101011001100011
0010000101000100
0010001000110011
0001000000010001
0010001011110000
1110111111010000
1101111011001011
0000110011011111
0100011001010100
0010000101000010
0010001000100010
0000000100010000
0001111111110000
1100110011110001
1101110111011110
0100000111011110
0001010001100100
0011001000010010
0010001000110010
1111000100010000
0000000000010000
1011110011110001
0001000011111011
0011001100100011
0001001100110100
0010010100000010
0010000000000010
0001000100011111
0010111111110010
1101101011010000
0011111000001011
0101010101010011
0001000000010010
0100001001000011
0000111100010001
0010000100100000
0011000100000001
1011110011110010
0001111111101011
0101010000100011
0001000100010011
0011001001000100
0000000111110001
0000111100011110
0001001000010010
1110110111110000
0001000011111110
0100001101010100
0010010000100100
0000001100100101
0000111000001111
0001000100001111
0001000000010010
1111111000001111
0010110111011110
0010001100110011
0100010001010110
0001000100110001
1111111011011111
0010111100010000
0010111111100000
1111111000000010
0001110111011100
0100010000101111
0010001100110110
1101111100011111
0000110111011111
0000000111110000
0010000000011111
0010000100100001
1110000011101101
0011000100011110
1110111100010011
1111000011101111
0000111111111110
0000000100000010
1111111100010010
0010001100100001
1110111111101111
1110000011111111
1111110100011110
1110111111001101
1111110111111101
1111111011101111
0000001011110001
0001001100110010
0000111100000010
1110110011101101
1100110011001101
1101110111101110
1111111111101101
0000111100010001
0000000011111111
0100001100100010
0011001100110011
0001000100001111
1111001000100000
0001000000001111
0000000100100001
1111000000000010
0010000011110010
0010000100101111
0100010101010100
0100011001100011
0011001101000100
0001000100110010
1111000100101111
0010000000000000
0001111000010010
0001000100000001
0100001000000000
0101010100100011
0101010000100100
0000000100010010
1111001000100010
0000111000001111
0001001000011111
0000111000010010
1110111100010010
0000000000100000
0000001000011111
0001001000100010
0001111100100000
1110111100100001
1110111100000000
1110001000101111
0010000100011111
1111111100011110
0000001000010010
0010000011110000
1110000000010000
1111111100101110
0000000000101110
0001111011111110
0000000000001111
0000111100000001
1111000011110001
0010001011110001
0001111000001110
1111000100000010
1111111100011111
0000000100010001
0010001000100010
0010001000010000
0011000100110100
0001111100000010
0000001000010001
1111111100001111
0010000011101110
0001000100001111
0101000000110001
0101011101100110
0011001101000100
0001010001010011
0010000000010001
1111001011110001
0000111100101111
0011001011100000
0110010000110000
0011011001000101
0001000100010011
1111000100011111
1110111000011110
0000111011111111
0000000111111111
0011001111110010
0100010101010010
0001000100010011
0000111100010000
1110000011011111
1110111110111110
0001000011101111
1111111000010001
0011001000110011
0010001001000100
0010001100010001
0001000100100000
1110110000001110
1100101010111101
1111000111101100
0001001000100010
0011001000010000
0010001000100001
0000000100100001
0000001101000000
1110110111101110
1001101111001100
1111000100001011
0001000000100001
0101001100100100
0011001100000011
0101000100010010
0101011100110110
1111111111110010
1001101011101101
0001000011101010
0000000100001111
0011001101000100
0010000011110011
0100000100011111
0110011101100110
1101000100000011
1010110011001110
0000000011001001
0001111100010000
0001010000110001
0000111000101111
0011000111110000
0100011101100111
1110000100100101
1001110110111110
0001111011011010
0010000000011111
0001000101000010
1100110011001110
0000111111001101
0110011101100010
0010000100010110
1011110111111110
0000000111101001
1111111100100001
1100111000010010
1001110011011100
1111100110101010
0010001001010011
0011001001010010
1100111100000000
1111000011111101
0000111100011110
1100000000010001
1011110011001011
1011100110011001
0010000000000000
0000000101010010
0001001000000011
1111000100000001
0010000000001111
1101111011010001
1011111011001101
1011100111011101
0001000111110000
0011001101010011
0011001011110001
0000000111110001
1111111111101111
1101110111111111
0001110111111101
1101110111100000
0000111100101110
1111001100100100
0010001000000000
1111000100010001
0000000111110001
0000111000101111
1111001100101110
1100111011001111
0011000000100000
0011001101000001
0000000100000100
0010000000100010
0010000100000001
1111000111110001
0001010000010001
0001110000000000
0001111100010000
0101001101010100
0011000000100100
0001000100000011
0000000111110010
0010001000100010
0001000100110001
1111110111100001
0001111100000000
0101001001000011
0011001100110011
1111000100100010
0000001000100001
0011000000110100
1111111100100010
1110110111011111
0100000111110000
0010001101010101
0001001100110101
0000001000000001
0011000100010000
0010000100100100
1111000000000000
1110111111111110
0011001000010001
0100010100100101
0011010000100001
0010001001000011
0001000000000010
0000001101000011
0000000100010001
0001000111101111
0100010101010011
0010001001010110
0001000001000011
0001111100110011
0100000111110000
0001001100010010
0010111111100001
0101001000100010
0101010100100100
0010001101010011
0000000000100000
0001000100000010
0010000000010000
0000000000110101
0010000000000001
0100000100100000
0100010001000101
0011000000100011
0001001000010000
1111111000000000
0010000000100000
0000000100100011
1111001000010001
0010001100000010
0000010000010010
0010111100100010
0010111011010001
0000111100100000
0001111100001111
0001001000100100
1111001000110010
0000000011111111
0000000100000000
1111111111111111
0010111011111110
1111111100000010
0010001000100000
0010001000110011
0011001000100001
1101111111100010
1110110111001110
1110000011011110
1111000111111110
1111001011100010
0011111011110000
0011001000010010
0001000100100101
1011110100001110
1011101110111011
0000110111101111
0000000000000001
0010000100000000
0010000000000001
0100010000100010
0011000101000011
1110000100010000
1110110000001110
1101000011110000
0010000111110001
0001111111100001
0001000111100001
0000000000001111
0110010001000010
0110011101100111
0100010000100100
0010000100100001
0000000000010000
0000000100010001
0000000100000000
0001111000010010
0010001100100000
0100001000100001
0011000100110100
1111001000100100
0000000000100001
1111000011100001
1111001000000010
1110000100011111
0001000100001111
0000001011101111
0001000011110001
1111111111110010
1111111011110001
0010000111100010
0001111100100001
0001000100011110
1110000100010001
1111000111100000
1111000000001111
0010000100101110
0000111000010001
0000111100000010
0000111111111111
1110111100011110
0000000100001111
1111001000001110
1110111100010000
0010000011110001
1111000100010001
0001111100100001
0000111011101111
0000000000011111
0001111100011110
0001000111101111
1110111111101110
1110000011101111
0000000000001110
0010111000101110
1111000000010010
0010111000100001
1111000000001111
1111000011101110
1101001011101111
0001000011111110
0000111000010000
0001001011100000
1111000100010001
0001111100000001
0010000100010000
0011001000100001
0000000100110011
1110000100010000
0000000100010000
1111000100100000
0010111111110000
0001000011110001
0011001011110000
0001010000000001
0100001000010010
0000001100000011
0010000000010000
0001000100000010
1110000100000000
0011111100000000
0001001100000000
0011010001010011
0011001100100011
0010000100010001
0010000000000000
1111000000100010
0010111100000000
0001000000100000
0011010000010010
0100001001010010
0000111100110010
0011000100010011
0100001000110001
0000000001000101
0010111000010000
0100010000010011
0101010100110100
0000000001000011
0001000000011110
0010000100101111
0101001100010010
1111000100110101
0010111100101111
0011010000110000
0010001101000101
0010001000110001
1111001000000000
0101010000110001
0101010000100011
1111001001100110
1111111111110000
0010000100110001
0001000101000101
0001111100010010
0010000100110010
0011010000010001
0111010001000100
1111001001010111
0000001000010000
0011001000010000
0000000101000010
0010001100101110
0001010101110101
0000111100010001
0100010000010011
0000001001100110
0011000100000000
0011010000100100
0001111100010011
0110011000000000
0011011001110111
0001111111110000
0001000100010000
0000001101000011
0010001000010010
0000000000100001
0000000111100010
0111011100110001
0100011001110111
1101111100000001
1101110110101111
0010000001000010
0001000111100001
0000001000110000
1111000011111101
0111011101101111
0011011001110111
1011110011110001
1010100110101101
0000000111110000
0000000100000001
1110110111110010
0000110111011110
0111011101100001
0001001101010111
1100111111101110
1100101111001101
1110111100001111
1111000000010001
1011101111100000
1110111010101100
0111011001001111
0010001001110101
1111111011011101
1101100110101101
0010111000001011
1111001000101111
1010110111011111
1101101110011010
0101010100101101
0001000100110110
1110111100001110
1111111100001111
0001111100011100
0000111100100000
1101110011011111
1100101110101100
0100000111111110
1111001000000100
0010000100000000
1111000000000000
0000111011100000
0011001000100000
1100111011110011
1100101010111100
0010000011001101
0000111000000010
0000001000001111
1101111100100010
0000000011111101
0011111100011110
1111111111110001
1011101011001110
1110110111111100
0001111011101110
0001000100010010
1111111100100010
0001111100000000
0011000111110000
0001001000010011
1110110111100011
0000000011101110
0010111111110000
0010001000100011
1111001100000010
1111000100001111
0100000000010010
0101001001000001
0000001100100010
0000111011011101
0011111111111101
0001001000110100
0001000000000001
1111111000001101
0010000100011111
0100000100100001
0001010001000110
0000111111110001
0010000100010001
0011001000110001
1101000100100000
0001111100011110
0011000111110010
0011010000010001
0010000100110100
0010000000100001
0100010000101111
0100000100100100
1111111000100001
1111001011101101
0000001000000000
0001001100100001
0011010000100100
0100000000110010
0101010001010010
0010000000010011
1110000000001111
0001000100001111
0000111111100000
0001001100010000
0001001100000011
0110001000010100
0110010001000111
1111000000000100
1111111011111110
0000111100100000
0000000000001110
0001001100110001
0000001000110000
0110010101000001
0101010101010110
1110001000110100
1111000011101110
0010111100000000
0001001000011110
0010000100100010
0100010000110001
0111010101100011
0010001101000111
1110111100100010
0001000000001110
0000000000010000
0010111100001110
0000000100010001
0010111100100000
0010010000100100
0000000000100101
1111111100000000
0001111011110001
1110111100000000
1111111000000000
0000000000000000
1111001000001110
0001111100010001
0000001000100001
1111111100000010
1111111000001111
0000111000011110
0001000100001111
0001111111111110
1111001000000000
0010001000101111
0010000011110010
0001111111110010
0001111111100001
0000000100001110
0000000100010000
0001000111111111
0001111100010001
0000000111110000
0001111000010000
0000001000011111
0001111100001111
1111111000010001
0001000000010000
0001111100000000
1110001000001110
1110000111100001
1110111000100010
1111000111110001
0000111100000000
1110111100010001
1110000100010000
0001000011110000
0001000000001111
1111001011110000
1111000100001111
0010000100000010
0001111100101110
0000111100000001
0010001000010001
1111000000101110
0001111100101110
1110000111101111
0001001000100000
1111111111101111
0000111011110010
0010111100001110
0001001011111111
0010000111100000
1111111011110001
0000111100011110
0000111000010010
0010000000000010
0010000011111110
1110111011111111
0001000011110001
1111000111100001
0000111000001111
1111111111100001
0001001011111111
1110111111100001
0000111011100001
0000000000010000
0001111100000000
1111000100010000
0000000011111111
0001001000100000
1111000111110000
0001000100011110
0010000111110000
0001111100010001
0001000111111111
0000111100000001
0010111100000001
0010000000010001
0000000100000000
0000000000000000
0001001011111111
0001111100000000
0000000100011110
1111111111100001
0001111111100001
0001000111100001
1110111000000000
1111111111111110
0010001011100010
0000000100000000
1111001011101110
0000111100010001
0001000000100000
0001111111111111
0000000100011110
0001111000011111
1111000111100000
0000000111100010
0001111100011110
1111000011110000
0000000100000000
1111000000011110
0000000100010010
1111000100011110
0001000111100010
0000111100000001
1111111100001111
1111000111100010
0010111100011111
1110000000100001
0000000100000000
1110111100011110
0000111100100000
1110111100011111
0001001011110001
0010111100010000
1110000011100000
0001111011100000
0001001000011110
0000111111110000
0010000100010001
0000001000001110
0010111100001111
0000111111111110
0010000000101111
0001111011111111
0001111011100001
1110000000010000
0001000011111111
0000111000000001
1110000100010001
1110000011111110
0000000000000000
0000111011110000
0000111011110000
0000000100001110
1111000000100001
0010111100001110
0001000100000000
1110111100010000
1111000000000001
0001000111111111
1110111100101110
1110111011110000
0001111000001110
0000001000101111
1110001000100010
0000111100000001
0010111100100001
1111111100010000
1111111000010001
0000000111111111
0010111000001111
1110000011101110
0000000000000000
1110000100010010
1111111100000010
0000111000100000
0000000111110010
0001000111100000
0001000100100001
0000000111100001
0001111111110010
0000000100101111
0001111111111111
1110111000101111
1111111000010010
0001000011110010
1111000000000000
0010001000000001
0000000000010000
0000001011110001
1111000100011110
1111001011101111
0000111111111111
1110000011111110
1111000000000000
0001001000011111
0000111111111111
0000000000001111
0001111011111111
0000111111111111
0000111000001111
1111000111100010
0001000111100001
1111000000000010
0001001000000010
0000000000101110
1111111100011111
0000000100010000
0001000000100001
0000111011110001
1110111111111111
0001000011111111
0000111100010001
0000000100010010
1111000011110010
0001000100011110
0000111111100000
0000111100000001
1111000111110001
0001111000011111
0000111100100000
1111111000001111
0000000000100000
0000000011101110
0000000011110001
0001111100001111
1110111111110001
1111111100010001
0001000111101110
0000111100010010
0000111100000010
1111111100011111
1111000100000000
0000000000001110
0000111111110001
1111001000101111
0010111000000000
1111001011110010
0000000100011110
1110111100011111
0000111111111111
0001000011100001
1110000100010000
0001000100010000
1111111100010001
0000000111111110
0010111100000001
0001000111101111
0001000011100010
1111111111110001
1110111100011111
1111000011110010
1111000000001111
1111111000011110
0000001011111111
0000000011100000
1111000111101110
0001000100011111
0010000111111111
0000000100011110
1111111100000000
0010111111101111
0001000000000000
1110111111110000
1111111100010001
0001111100000000
0010111011111110
1111000100011110
0000111100000000
1110111011110000
0001111100010010
0000111011111111
1111001000010001
0001000100010000
1110000100010000
0001000000010001
1111000000100000
0010000011101110
0001111100000000
1111000100011111
1111000100001110
0001111100010010
0001000100101110
1111000100001111
0000000011101111
0001001011101111
0001111011111111
1110111011111110
0001001000011111
0000000100000000
1111000011101111
1110000000011110
0010111000101111
0000111111100001
0001000100000001
1110000000000001
0000111111111110
1111000000000001
0001111000010010
0001000111110000
0000000100000010
0001111011110010
1111000100010000
1110111111111110
0001111100010000
0000000000100001
0000000111110000
0000111111111110
0000001000010000
0001000000100000
1101000100001110
0000110111101101
1101110111111110
0000111011111110
0000111011100000
0000000111110000
1111000011100001
1110000100010000
1111111011100000
1101110111101111
1100110010111100
1111111111111111
1110000011110000
0001000100100010
0000000100010001
0001000011110000
0001111100001111
1110111100010001
1110111011111110
0000110111011100
1111000011011100
0010000011101110
0000111100010001
0011000000001111
0000001011110001
0001000100010000
0000000111110001
0000000111011111
0000111111101111
0000111000001111
1111000000101111
0011001100010000
0010111100100010
0011000100100000
0011000101000100
1111111100000001
0000110111111111
0000111000001111
1111000011111111
0001010000011111
0100010000100001
0010000100100010
0011001000010100
0000000000010000
1111111100010001
0000001011111111
0001001011101110
0001000100110001
0001111111111111
0101001000000001
0010001000110011
0010111100100011
1101111100100000
0000000011101111
1111000011110000
0000000000100010
1110000100000000
1110111111010000
0010111111111110
1111000100100000
1101000100000010
0000110100001100
0001110111100010
0001000100100000
1110000011100001
1110110111101100
1111111010111011
0011001100011111
1101111100000000
0000111011101101
1110111100011110
0010000100000001
1101110011100000
1001110111001100
1111111011011100
0011001100010010
1101000000010010
0000000011001110
0001111100001111
0010111100000001
0000000000011111
1110111011100001
0010000100011100
0010010001010001
1111000100100011
0001000111011111
1110111011100000
0000111111110000
1111001000101111
0011000100010010
0100001001010100
0011010001010101
1111000000110000
0000111011101111
0000000111111110
0010000000001110
0010001000100001
0111010101000011
0110010101110111
0011001000110011
0000111000010000
0001000111111110
0000111011100000
0001111100010001
0001001000110010
0111011101100011
0101011101110111
1111000100100101
1111111011111101
0001111011111111
0001001011110000
1111001011100010
0010000100010000
0111011101100101
0110010101110111
1100110100100010
1101110111111110
0001000100000000
0010111100011111
0001111100100000
0000000100100000
0111011101100010
0010011001100111
1100110100010001
1101101111011100
0010000111110000
0001000100011110
0001111000011110
0000000111111110
0111011101000001
0010010101000110
1110000000000011
1110110011110000
0010000011101110
0010001000101111
1111000100011111
1110000011111110
0011001100010010
0001000000010011
1101111011010000
1110110100001111
0000000111011110
1111000111110001
1110110100000000
1110111111101110
1101110111111101
0000000011101110
1110111011011110
1101111011110000
1110111011001111
0001000111110001
0000111111111111
1100110011101101
1011101110011001
1111000011111011
1111000111100000
1100110111100001
0010000011111101
0010001100001110
1110111000100000
1001110011111101
1010100110011001
0001111111101011
1111000000011111
1111111111110000
0000000100011100
0001000100001110
0001000100000001
1001101011110001
1100101010011001
0001111111101011
0001000111110000
1110110011010001
0010000000001111
0100001000001110
0001000000100010
1010110011110001
1100110110101011
0001000011101111
0010000100100010
1101111111110000
0010000111111111
0000111111111110
0011000100110011
1100111111100010
0000111011001101
0000001000001110
0001001100100010
1101110111011111
1111111000001110
0001000100000001
0010001000000001
0000000100010000
0000000100000000
0011111100000010
0010000101000100
0001111111111110
0001000000011110
0001000000100000
0001001100000000
0010111100100001
0001001000110010
0000001100110011
0100001000100010
0010000000011111
0001111100000010
0000111011110001
0010000111110000
0010001000111111
0000000000100100
0011111111111111
0011010100110001
1111000000000001
0001000000001110
1110000111110000
0001111100010000
0010000111111110
0000111000010010
1111111111101110
0010001100000010
0000111100000000
1111001011110000
0000111100000000
1110000000001111
1111000111110001
1110111011101110
1111110011101111
1111000111110001
0001111111101111
1111000000100010
0000000100010000
0000000111100000
1110000000001111
1111000011100010
1111111111111110
0000111111100000
0001111011111110
1111001000011111
0001001000000010
0000000000000001
0010111100000001
0000111100101110
0010111111100001
1111000100011111
1111111111101111
0000111011100001
0000001000101111
0001000000100001
0001000111100010
1111000100001111
0001001000001110
0000000000001111
1111000000010000
0000001011111111
0001111111111111
1110000100001111
0000000111100010
1101111011001110
0000000100001110
1110000000001101
0000111011100000
0000000011110001
0001111100010000
0000000000001111
1101000011100001
1111000011101110
0001000000010000
1110111111111111
0000000111101111
1111111100100000
0000001000001110
0001000000010000
0000000111110000
0011010000010001
0001001100110101
1110111011100010
0001111011111101
0000000100101110
0010111100010000
0011001000000010
0010010000110010
0011001100010010
0011011000110110
0010000101000010
0010000000100010
1111000011111111
0000111111110001
0011001111111110
0010011000100001
0001000100100100
0000000100000010
0001001000100010
0100010000010001
0001111100110011
1111000100011111
0100010000100010
0101001101100101
0001001000110001
1110110011011110
0100000000100010
0101010001010101
0001000100100100
0010001011110001
0100011000110001
0011010101000111
1101000000010010
1100101110101001
0100010000001111
0100011001100101
0010111100110101
0001000111100000
0110001101000100
0011011000110111
1110111100100010
1101110110111010
0101010100100010
0111010101100011
0010001001010100
0010000000000001
0100010101000101
0001010001000100
0000000000000001
1111000111111101
0100001101000001
0011001101010101
0001001101100101
0011001011110001
0011000101000100
1111000100100000
1111111011010000
0011001000110001
0100001100110100
0100001100000001
0000000101000101
0001000111101111
0001111100010010
1101111111101110
0010000100011111
0010010001000100
1111000100000100
0000110111101111
0010000100010000
0010000000100000
1100110111110001
1101101111101011
0001000100011111
0010010001000011
1100111000010001
1100101110111101
1111000000001101
0000000111101111
1101110111011111
1101101111101100
0010001100010000
0011010000100001
1100110111110000
1100101010101010
1110000000011101
0000111100000010
1011101111001111
1100101110111101
0010010000101111
0000001100100001
1111000011011111
1100100110101100
0001000011111110
0001000111110010
1010110011011110
1110110011011100
0100001100001110
0001001000000010
0000000011111111
1100100110111111
1110001000001110
0000001000010001
1010110011111111
1110110011101100
0100001100011101
0010010000100011
0001000000010001
0000111011110000
0000001011110000
0001000000010000
1101111100000010
1100101111001100
0100001100101101
0100010101000100
0000000100000011
0001110100010010
1110001000000000
0000111000101111
0001001000100010
1101111011001110
0111001100011111
0010010101000100
0010001100100010
0010000000000000
1111000100110010
0011000000001110
0010001000010100
1011101111110001
0101010000101100
1111010000100101
0000000011111111
0100001100010000
0010001000110010
0011001000010001
0101010101010010
1101000000010001
0001010100001111
1111001000000011
0010111100101111
0100001000000011
0000111100100001
0000111100000010
0101010001000011
0001000000110110
0000001000011110
0001000100010000
1111000000101101
0100010000100000
1111111100000010
0010001011110001
0101010100010011
1111001101000101
1110000011110000
1111111000001101
0001001000010010
0011001000110001
1110111000100000
0001111100101111
0100001101000100
0011000100110100
1111110111110010
0001000000001111
0011001000110000
0011000100110010
0001111111100000
1111001011100010
0010000100100100
0001010101000100
0000000100100001
0011000111101110
0011001000110100
0000000000110000
0010000100001111
0001111000011110
0010000100100011
0100000101000011
0100001100100010
0011010000010001
0011001100110100
0001000000100011
0000000111100000
1110000111110000
0000111100001111
0011001100110010
0010001101000010
0100010101100100
0001001100110010
1111000011110001
1110000100011111
0010000000010000
0010000111110000
0001001000010000
0100010001000010
1111001000100011
1111111011111110
0000000011101101
1110001000010000
0001000100100010
0001111111101111
1111111000001110
1111111011101111
1111111100000001
1100101110101101
0010111111111100
0010111100010000
1111000000011111
1111000111100000
0001111100001111
1110111100000001
0000110111100000
0000111011101101
0000111011111110
0001000100011110
0000000011110001
1110000000001111
0000000011110000
0010001000010000
0010000100101111
0001000100010010
1111111111111111
0001111011110010
0000111100010001
1111000111101111
0000111100001111
0001111100010001
0010000011111110
0000000011110000
1110000111110000
0000111111110001
1110000111111110
1111001000000010
0000000011111111
0000000011100000
1110111011110001
1111111111110001
1111000111110000
0001000111101110
1111111111110001
1110111011100000
0001111011101110
1110111000001110
0001111111011111
0001111011101110
1111111100010001
0000000000001110
0010111000010001
1111001000100010
1101111100000001
1011110111001101
1110111011011101
1110111111101100
0010000011011101
0001000000011111
0000000011110001
0001000100001111
1110110100001110
1111110111011111
1101111011100000
1101000011111100
1110000011101110
0001000111101111
1110000100011111
1111000000010010
1100000011111101
0000111011111110
1101111100010001
0001000011111110
1111001100110000
1111111011111110
0001111011111110
0001000000010000
1110111111110000
1110000100011111
0001111000001111
0001111111110001
0001010000110011
0000111111110010
0010111000001111
1111000011110000
1111000011111110
1111111100011111
0000000000000000
0001001000010001
0011001000010010
1111000011110000
0001000100011111
1111111000001111
0000000100010000
0000000111100001
0000001011101111
0011001000010000
0010000100100010
1111000100010000
1111111111110001
0010111000010010
1111000000101111
1111001100000000
0010000111101110
0000001000010010
0010000100000011
0000000100001110
0000000100101111
0000111111101111
0000000111111111
0000111100000011
0000001000001101
0001001100010010
0000111100000000
1110000100001101
1111000100000010
0000000100000000
0100010000010001
0001000101000011
0010000000110001
0001111100110001
1111000000100001
0001000111100000
1111000100000000
0000001000000001
0101010100100011
0010010001000100
0010010100010011
0010000100100011
1111000100010011
0000000000010000
1111000111110010
0100001000000010
0101010001010110
0001001001000101
0100001100010011
0001010001000110
0001001000110011
1110000011101101
0001111111110001
0101001101000011
0011010001110110
0010000000010010
0111010001000011
0010000100110100
0001000000110100
1111111100010000
0001000111100001
0100001101000011
1111001001010011
0001111011011111
0110011101010100
0100001000110110
1110000100100010
1111001000001110
0001000011100000
0100000100000011
1111000100010010
1111111010111101
0011011100100010
0100001001000011
0000000000100010
1111000111111101
0001000011110001
0001001100010000
1100000100100010
0000001000001110
0100010001000010
0000000000110100
0000000111100000
0000111100001101
1111000100001110
0011000100000001
1110000100000000
0101000000011110
0010010001100101
0010000100000000
1110110100001110
0010111111101110
1111111100101111
1110110111101111
0000001000010001
0011010000100001
0000001001000100
1111111111010001
1101110011010000
0000000011101101
1110000111100000
1101110111100000
0000000100001111
0101001001001111
1101000000110011
1101110111101111
1100110111001110
0000000100001100
1110111111100000
1111111111011111
0000000111111110
0100001000000000
1110110100010011
1111110110101010
1101110111101110
0000111011101111
0000000000001111
1011110011011100
1011110011111110
1110111011111110
1100111011010000
1101110010111011
1100101111001111
0000000000001111
0000111011110001
1101110110111101
1010110111011011
0000110110111101
1100110011101101
1110110011011110
0000000000001100
1111000111101111
1111000011110000
1111110111101111
1101110011010000
0000111111011111
0000111000001111
1111111111011111
0000111111111110
0000000000000001
0001000000000000
0000111111111100
1111000111111110
1111111111101110
0010000000001110
1111000000010000
1111000011100001
0001000111110000
1111111011100000
1111111111111110
0001000100000000
1111111111111111
0000000100010010
0001111100000001
0000000000000001
1110000100000000
1111111011100001
0000111011101111
1111000000100000
0000000100100001
0101001101000001
0010000011110010
0000000100000010
1111111100011111
1111111111101111
0001000111100001
0001000111111110
1111111011100010
0011000100001110
0000000000100001
1110001011110001
0000001011111110
0001000100000001
0010111100000001
1111000000010000
1101000011111110
1110000000001110
0000001000100000
0000111100000010
1111111011110001
0000111100010010
1111000100001110
0001001011110001
0011001011110001
1111111111111111
0001001000011111
1110000100010001
0010000100010001
0001000011101111
1110111100100000
1111000000101111
0000000000000000
1111111000100001
0001001011110001
1110000100101110
0000000111110010
1111111100001110
1111111000000001
0010111100011111
1111111100011111
1111001011110010
0010111111111111
1110000100001110
0010000111110001
0000000000011111
0001001000010001
0000001011110001
0010000100000000
1111111100011110
0000000000000000
1111000100011111
1111000100100010
1110000100000000
1111111011110010
0000000100011111
0001111111110000
1101000000000001
0000110111111111
0010000000011110
1110000011110000
0000000000001110
0000111111110001
1110111000000000
0010000100011111
0000111111111111
0001111011111101
1111000000000000
1111111100011110
0001000100001111
1110111111110000
0001000100010001
0100001000010011
0001000100110001
0000110100001110
0001111111011100
1110111100010000
0001000000010001
0001001000000010
0000001100010000
0100000000110010
0011001100000011
1101111000010010
1100110111001110
1111111011111101
0001000000000001
0011001011110001
0010001000100010
0000111100110001
0010111100100010
1111000111101110
1101110111011101
0001000111111111
1111111111100001
0010000100000001
0001010000110011
0001001001000011
0000111100010010
1111001000000001
1100110100010000
0001001011010000
0001000000101110
0011010000110011
0101011001010010
0000001100100101
0000001000001111
0011010001010011
0001001000100000
1111111011101101
0000001000001111
0110010001000100
0100001101100110
0100000100010100
0110010001000010
0011010100100100
0001000000010011
1111000111100001
0010000000001111
0100001001010010
0100000100100101
0110010000010011
0111011101010100
0101011001010110
0001001100100010
0010000000000000
0001001000010001
0011001001010011
0010000100100001
0100010100010010
0111011001110111
0100011101000101
0011010101010010
1110111000010001
0100000100001110
0011000100110001
1111111011100001
0100010000010001
0110011001010100
0010011001100100
0101010001010011
0000000011100010
0011001000000010
1110111000000000
1100110111010000
1111111011100000
0001000011111110
0010000100010100
0100000100010010
1110111111100010
0011001000010001
1100110100000001
1110111111011101
1011101111101101
1111101010101011
1110000100101111
0011001100010000
0000111100010011
0001111111110000
1111111011110001
0000110111001101
1001101011101101
1110101110101001
0001000111110000
0010001100100000
0010000100000000
0000111111101111
1111111100001111
1101111011111111
1001101010101110
1111101110111010
0010001000100000
0100010000010000
0000111100000010
0001111100000001
0000000000000000
1110000100011101
1001101011001101
1101110110101001
0100001000110000
0011010100110011
0010111100010010
1111001000000010
0000000000100000
1110000011100010
1001101110101011
1111110110101001
0100010101010010
0011001001000100
0000000111110100
0000111100010001
0000001100010011
1111000000010001
1011110010111100
0011000010101011
0010001001000101
0011001101000001
0000000100110001
0001000100001110
0010010000110001
0000111000010010
1100110011001101
0011111111111011
0100001101010101
0010001100110000
0001000100110001
0010000100010000
0010001100100011
0001000011110010
0000111011110001
0011010000011111
0001000101000100
0001001100110001
0001111100010010
0001111100101110
0011001001000010
0100001000010011
0001001001000011
0100000100010001
1111111000000010
1111001000000000
0010001011110000
0011000100011111
0100000100110100
0101001100010100
0011001100110011
0001000000110011
1101110100010000
0001111111100001
0010000000000000
0001000100000000
0010010000110010
0101001100010011
0010000101010110
0000001000010011
1101111011101111
1110111011011101
0000000111110010
1111111111110001
0011001000110000
0010001101000100
0100010100110100
0000000100100011
1110110111110001
1101111011101101
0001111100010000
1110000111101111
0010000100010000
0001001000010100
0101001100100011
0011001001000100
1110110011100001
1111111011101101
0001001000001111
0010111111110010
0001000100000000
0011001100100010
0100010001010101
0001001000110101
1011101111011111
1110110111011011
0010000000000000
0001001011111110
0010001100010010
0001000100100011
0110001000100100
0010010001010100
1101111011111110
1111000011101110
0010000000001111
1110000000011111
0011111111110001
0010001000010000
0100001100100100
0000001101000101
1101000011110001
1110000011111111
0000000100000001
1111111100010001
0001111011100000
0010001100110001
0011001100110100
0011001100100010
0000111100010010
0010000111101110
0001111100011111
1111111100000010
1111111100001110
0000111100010001
0001001100100010
0000000000000010
0010111000010001
0000111111111111
1111000100001110
0001000100000000
0000001000010001
0001000100101111
0010000100001111
0001001000000010
1111000000010010
0001111011111111
0000111111101111
1110000111110000
0000000100000001
0000111111111111
1110111011100001
0001000100010001
0000000000010000
0001000011100010
0000001011110001
0000111011110000
0000111100010000
1111000000011110
1111111111100000
1110110111011101
1101111100000000
1111111000000000
0000000100011111
0001000000011110
1110111000000000
1111000011110000
1111111011101101
1111000011101110
0000000000000001
0001000111100000
0000000000010000
0001000011110000
0010111000011111
0001000100001111
1110110111011111
0001000011001110
1110110111100000
0000000000010001
0000111000101111
0000111100100010
1111000100101111
0001001100100010
1110111011100010
1110000100011101
0001000011110010
0011001100010001
1110001000100001
0000111100001111
0001111111100001
0011000101000000
1111111100100001
0000111000100001
0000001011110001
0001001000010000
0010001000110011
1111000000001111
0011000011110001
0011001100110011
0000001000110011
0001000000010010
0000001000100010
0011001100010010
1111000001000011
0001001000001111
0000000000010000
0001010000010001
0001000101000011
1111000100010000
0001000000100000
0100001100100000
0000001100110101
0001000000010000
0000111100000000
0011001000110011
0010010001000101
0001111111111111
0010000100100000
0101001100110100
0001001101110111
0001111100000001
1111111100001111
0101010000010010
0001000000100101
1111111100001110
0000001100000001
0100000101000011
0010000001100101
0000111100001111
0010000000100000
0110010000010010
1110000001010101
0001111011111111
1110000000000000
0000111100010000
0000000001000101
1111000000100010
0000000011110000
0011010000111111
1110001001010100
0001000010101101
1100110100000000
1101101111011100
0001001001000011
1111000100101111
1110000000000000
0010000000111110
1101001100110110
0011000011001011
1101111011110000
1010101010111001
0000000000101111
1110000000010000
1110111011110000
0100000000010000
1111000100100100
0001000011011100
1100111000000001
1001101010011011
0001000111111101
1110000000101111
1110111100010001
0100001000000000
1110111101000011
0000000011001100
1110000000010011
1001100111001101
0000001000011100
1110000000010000
0000111011110001
0110010000111111
0000000101000101
0010000011001111
0000001001000110
1100110111001111
0000000000101110
0000111100000010
1111001000101111
0010001000100011
0010010100110000
0011001100000000
0001000101100111
1111111111110000
0000000000010000
0000111100010010
0010000000101111
0010000000110001
0100000100110010
0110001100100010
0000010001000101
0000000100000000
0001000100111111
0000000000100001
0100000100110001
1111110100010010
0101001000001101
0100001101000110
0000000100010011
0011000011110000
1111001001000011
0010111000010001
0100001000000001
1101110011100010
0100001000001100
0100011001110110
1111111100010100
0001001111111111
0000001101000010
0001111000011111
0101001000110001
1101101111100001
0100000111101100
0011001001100110
1110110111110000
0010001111110010
1111000100000101
0010111011111110
0011010000000001
1011110111110001
0010000100001011
0001000000010100
1110000011111110
0010001100110001
0010000100110010
0001000011110001
0000001100010010
1111111100010000
0000110111101100
1110111111111110
0011000100001111
0100001100100000
0001001000000011
1111000011111110
0000111011100000
0000000100010000
1111111100001111
0000111111111101
0100000000000000
0001010000110100
1111111111110001
1111000100011111
1111111111100010
0000111011111101
1101000000010001
1111111110111111
0100000100100010
0100001101000110
0000111100000011
0001111111110010
1110110100011111
0000111111111110
1111000111110001
0000111011111100
0110010100010010
0011000101000100
1111000100000001
1111000011111111
1100111011100001
0001000000001101
1110111000100001
0001111000011101
0100010000110001
0010000000110011
1111000000000000
0010000000001111
1111000111110001
0010000100011111
0001000100010010
0010001101000011
0010000100110001
0000111111110000
0001001011101111
1110111111100000
0001000000100000
0001001100100000
0011001101000001
0001001000010001
1111000000001111
0010000100011111
0001000000000000
0000001011110001
0010001011110010
0001000011101111
0010000000011111
1111111100010010
1111111111100001
0001000100101110
1111000100010001
0010001000000001
1110001011110000
1110000000011111
1110000000001111
0001000000010001
0001000000010000
0001000111110001
1110111100101110
0000111111101111
0001000100101111
0001000111110010
0010000100010010
1111001011100010
0010001011100001
1111000000101111
0010111111110001
0000111011110000
0010000000000000
1110000000001110
0010111000001110
1111000000001110
0010111100000010
0000111011110001
0000000111110000
0010000000100001
1111000111110001
1111111100010010
0001111111101110
0000111000001111
0001111100011111
0010111100001111
0010111100010000
1111001000011111
0001000000000000
0001000000000010
1111000000011110
1111111111110001
0010111100010000
0010000111111111
1111000000010010
0000000111111111
1111000000000000
0000111100100000
0001000111111110
0001000000101110
1110111000011111
0001000111110001
0001000111111111
0001000100000000
1111111100000010
0000000000001111
0000001000000010
1111000100010000
1111111111100000
1111001011110000
0001111111110000
0000001011100001
0010000000000001
1110000100001111
0000111011110000
1111000011110000
0000000011110010
1110000111110001
1111000111111110
0001001000000010
0000111000010001
1110111111100001
1111111100010001
0001000100001110
1111000100001110
0000111000011111
0000001000000000
0010000111110000
1110000111110010
0000000011110000
1111000011111111
0010111011111111
1111111000011110
0000111100100000
1110000100100001
0000000000000010
0001000100001110
0000000000010010
0001111100010000
1110000000001110
0010111100011110
1111001000000001
0001111100011110
1110000111110001
0000111011111111
1111000100011111
1111000100100000
0001111111111111
1111111100000001
1111111000000001
1111000111110000
1111000100011111
0010111000000001
0001000011110000
0001000111110000
1110111000101111
0000000011101111
1111111000010001
0000000000100000
1111000000010001
0000000011110001
1111111000101111
0000000000001110
0001000000000000
0000000011110001
0001000000000000
0001000000001111
1111000111100000
0001000000000001
0010000000010000
0000111111101111
0000111111110000
0000111111110000
0000000000011110
0010000000000000
0001000100000010
0010000100011111
0000000000000000
1111000011111110
1111000000000000
0001111000001111
0000000000001111
0001001000000000
1110111011110010
0000111100010001
0000111100010010
0001001000000001
0000000111101111
1111000111110001
0001111100000001
0000000000000000
0000000100001110
1111000111110001
0000000011100001
0001000111101111
0001000100000001
1111111000001110
1110000100000010
1111001011110000
0000000011110000
0000111100100010
0001000111111111
0001000100010000
1110111011111110
0001000000010001
0010000111100010
0001000011100000
0000000011110000
0001111111110000
1111000011110000
0000000111111111
0000111000100001
1111111111110000
0000000100000001
0010000100101111
0000111011111111
0000000100101111
0010111011100010
1110111100010000
0001111111111111
1111111011100001
0000111100101111
0001000100100010
0010111011110000
0010000000000000
0000000100010000
1110000000001110
0001111100000001
0001000000000000
1110000000001111
1110111000010000
1111000100000001
0001000100001110
1111000000101110
1111111011111110
0000000111101111
0001000011110001
1110000100000001
1111001000000001
1111000011110000
0000000100100010
0001111000010001
1111000011110000
1111000000100001
0000111000010001
0001000111100000
0000000011101111
0001111100000000
1110111111100001
0001111100000001
1111111000010000
1111000000011110
1111111000010001
1111111100100001
1111000100011111
0000111111110001
1111000100010000
0001000011100000
0001000000010010
0001000111100001
0001001011100010
0001000111100000
0000000000101111
0001111000000000
1111000111100001
0000000000000000
1110000100000000
1111111100010010
1110000011111111
0010001000001111
0000111111110001
0010111011110010
0000000000000001
0010111100000010
0001000011100000
1110000111100000
0010000011101110
0010000011100001
1110111100000000
0001001000100001
1111000000100001
1111000100101111
1110111100000001
0000000011101111
1110000100001111
0001001000001111
0010000000100000
0001000011111111
0000001000001110
0000111000000001
1111111100010000
1111000100010001
1111000000011111
0001000000100000
0010000100100001
0000000000100001
0010111000010000
1110000111110001
1111001011101111
0000000100001111
1110000100010000
1111000111110000
1111000111110000
0001111100000000
0001111111111111
1111000000010001
0000001011110001
0001000111111111
0001000100011110
1111000011111110
0001000100000010
1111001000011111
0000000100000001
1111000100000001
1110111100001111
0000000100000010
1111000111111111
1110111000011111
0010001011100001
1111000011110000
1111001000010010
1111111100100000
0000000011111111
0010000100010000
1110001000010001
0000111100000001
0001001000000000
0001000111110010
1110000111101111
0010000111110000
1110000000000001
0000000100010000
1110000000000001
0000111111100001
0001000000001110
0001111011101110
1111111000000000
1111001000010000
0000000011110010
0010000000010001
0010001100101111
1110000111110000
0001001000001111
1111111111101111
0000000111110001
1111000100000001
1111000111010001
0010000000011111
0001001000010001
0001000000010011
1111111100000001
0000000100000010
0001111100011111
1110000000011111
1101111111001111
0001111011111100
0100010101000001
0010010100110001
0000000000100011
0010001000011111
0001000100010000
0001111100011111
1101110111011111
1111110111011100
0001001100011101
0011010001010011
1110000100100010
1110111100101111
1111111000010001
0000000100010000
1111110111110001
1111111011001011
0010111111111110
0100001001010010
1110000011110011
1110000100010000
1110111011100001
0010000100010000
1111000011111111
1110110010111110
0001000011101111
0110010000010000
0001000000000011
0000001011101111
1101111111101110
0010001011111110
1100110011100001
1010111011001101
1110111011111111
0001000000001111
1111001000100100
0000111100100001
1111111011101111
1111001000001110
1100000100011111
1101110011001011
0000110111101111
0011111000000001
1110000100110101
0000111011110001
1101000011011101
0000111100110000
1111111100010011
1101110111111110
1110111011101111
0010111000000000
0000000000100001
1110001000000001
1110111111010000
0100001100110001
0001001001000100
1110111100011111
1101110111001110
1111111111111100
0000000000010001
1111000100001111
0011000000000001
0011011000100010
0011010001000101
1111001000100000
1100110110110000
0000110011001101
0010111111111110
0001111111110010
0011001000111111
0111011001010100
0010010001110110
0100001101010011
1011111011101111
0000111011011111
0000000111111110
1111000111110000
0111001100100010
0111011001110111
0011010000110100
0101010100110010
1100111111110000
1110111000001110
0000111100000001
1111111111101110
0110011101010010
0111011101110111
1111000000110011
0101010001010010
0010000100100011
0010000100100000
1111000100001111
1111111100100000
0100001101000011
0100010001000100
1111111011110100
0011010100111111
0011010101000100
0010000101000011
0001110111100010
0001000011110001
0011001100101111
0101001100110100
0001000100000001
0101010100110010
0010001101000101
0000001100110001
0000111100000000
0001111100100000
0011001011110000
0010001000110011
0011000100001111
0010011001000100
0010001001010001
0000001000000011
1111110111110000
1110111000010010
0001111111111100
0001111100010001
0101000000000000
0001001101110101
0011001000110001
1111111011110010
0001111011101110
1111000100010000
0000000011111100
1101000000010000
0011001100011111
0010010001000111
1111000100011111
1111110011101111
0001000111101101
1110111111111110
1101110111011100
1110110111001111
0101010000011110
0010001001010101
0001111111100001
1101111011110001
0001111000001110
1110111011110001
1110110111011100
1101111010111100
0100000100101111
0001000101000101
1111111100101111
1101110111001111
1111000100010000
1111000000011110
1101110111001100
1110110010111110
0011010100001111
0001000100100101
1111111000011111
1110110111011101
0010111111101111
1101000111100010
1010101110111110
1111111011011110
0011010100101111
0010010000110100
0000000000010001
1111111100010001
0001111111110000
0000000011100000
1101110111101101
0000000111101100
0000000100101111
0011000100000010
1110111111110010
1111000011101101
0001000100010001
0001000000100001
1011110000011110
1111000011011100
0001000000010001
0010001000101111
0000000100000010
0000111000010001
0001001000101111
1111000000000010
1101110111110001
0000111111111101
1111111111011101
0001000111101111
0010001000100010
0000111111110010
0010111111111110
0010000100001111
0000111111110001
1111001011111111
1101000011110000
0000000000011110
0001000111111110
0001000011110010
0000000111110000
0010111100011110
0010001000000010
1111000100000001
0000111000001111
0000111111110001
1111000111100000
0001000111110000
0001111100100001
0010111000001110
0000000011111110
0000111100011110
0000001011110001
0000111100000001
0000111111110000
0000001000000001
0001111100000000
1110111100101110
0001000100100001
1111111100101111
0000111100101111
1110111100001110
1111001011100000
0000111011100001
0001111111110001
0000111111100010
1111111111110001
1110000100001110
0001001000010000
1111000100100000
0000001000011111
0001000000000001
1110111100000000
0000000111110010
0000000011101110
0001111000100000
1111001000000000
0000000111110001
1111000011100000
0010000111110010
0000000100010001
1111000000010001
1110111000000001
0000000111110010
1110000011100000
1101000011100000
1111111000011101
0001000100000010
0001001011111111
0000000111100001
0001001011110001
1110111100001110
1101110111011110
1011101110101010
1110111111111110
0001111100000000
1110001011100000
0001000000001111
0000000011100000
1011101111111111
1011110011011010
1110101111101011
0000111111111100
0000111111100000
0000000000001111
1110000000010000
1101111011010001
1110110110111111
1111111011101110
1111111011101111
1111110111101110
0000000000011110
1111000100001111
0001000111100001
1110111100001101
1111111111101110
0000111000001110
0001000111110000
1111111000000000
1111000000000001
0001000000011111
1111000111111111
1100111011010000
0000111011111111
0000000000000000
0001000100010000
0010001000010010
0100001000011111
0001000100100000
1111000111111110
0000110111001111
0011000111111111
0100000000010011
0011010100110010
0001010001000100
0101001100100000
0000001000000011
0000000000010010
0010111011111111
0100010000110010
0010001100110100
0011000100100010
0001000101000101
0110010001000001
1110000100100010
1110001011110000
0010001011111110
0110011000010001
0100010001100110
0011000011110001
0101001100110011
0100010101010100
0000111011100100
0010000100000001
0001000100010001
0110011001000101
0010010101110111
0011000011101111
0010001101010010
0111011001000101
0001000111110001
0000000000010000
0110001001000010
0111011001110100
0010010101110111
0001111111001110
0101011001010110
0100011001000111
0000000011110001
0000001011111111
0101010100111111
0111011101110111
1111011001100111
0011111111101111
0110010101100011
0101010101110110
1111111011110011
0010111000000000
0111011101100001
0110011001100111
1111000101010111
0011111011101010
0111010101100011
0110011001110101
0001000000000010
0010000100100000
0111011101010011
0100010001000110
1011111100100101
0010111011101100
0101010000110011
0010011001000101
1111111011110001
1111000011111111
0011010101000010
0010001001000100
1011101111100001
0100111111101100
0011000100100101
0100010100110100
0000111111100001
0000000111110001
0011010100100001
0011001100110101
1011110011110001
0011000110111100
0001000000100100
0010000001001111
1111111100000010
1101000111111111
0001000100101101
0010010000100100
1100111000010011
0100001011011011
1110111100000101
0000111011100000
0001000011101110
1111111111111111
0010000011101100
0100010101100010
1101000100110011
0011000011101100
1111000011110011
0000111111101111
0001111011011101
1011111000001111
0000110111001101
0100011100110011
1111001000110110
0000001000100000
1110111100010000
1110110111101100
0001000011111101
1101111100010001
1111110111011100
0101001100101111
1101111100100101
1111001000010001
1101110011001101
1110111011011011
0010111100001110
1100000011110001
1110110111011100
0010000100011101
1111000000100010
1110001000011111
1101110111111100
0000110011001101
1111000111011111
1011111000011111
1110110110111101
0001000011101101
1111001000010000
1100111111110010
1110110010111100
1111111100001111
0000111111110000
1111000011111111
1110110010111100
1111110111101011
0100010000110010
1110000100010001
1101110011111111
1111111000001110
0001000100011110
1110000111100000
1110101111101100
0000110011101111
0011001100100011
1111000000100011
1101111100001110
1110000011111101
1110000011101111
1110000000101111
1110111010111100
0001111111001111
0100010101010010
0010000100110101
1111111111110001
0000000000001111
1111000100011111
1110000100100010
1111110111101111
0000111100001101
0111001101010001
0011000101000101
1111000000010010
0000000100000010
1110111111100000
1110000011111110
1111000011011111
0001000011111110
0100001100100001
0010001000110001
0011001000100010
1110001000010010
0000000011110000
0000000100101110
0010000111110001
0011000100000010
0001000000100010
0101010000100001
0010000000010100
0001001000000001
0000000000100001
0000111100010001
0001000100011111
0001000100000001
0001001100010100
0001001100100011
0010001100000001
1111001011110001
0001000100010001
0000111011110000
0001111100000001
0000111100000001
1111001011110000
0000000000000001
0010000000010010
0001000000001110
1111000011100000
0000111011111111
0000000111110000
0000111111110000
0001111100010001
0010001011111111
0000111100000010
0001000100000001
1111001000010001
0001000000011111
1110000111100000
0010111011101111
1110001000000001
1111111100001111
1111111011111111
0000111100000001
0000000100010010
0000111100100010
1110001011110001
0000000000001110
0000111100010000
0001000111110000
0000001000000010
1111111100010001
0001111011100001
0001000000011110
1111001011110001
0001001000000001
0010111111111111
0001001011110001
0000000100101111
0001000100000010
0000000100010001
0001000000100000
0001000011111111
0000000100001111
0011001000010010
0011001100100011
0010000101000010
0000000100100100
0000111011101111
0010000111110001
0000000100010000
0011111100010010
0000000000100010
0001001101000011
0100010000110101
0011010001000101
0001111011110001
0001000011110000
0010001000010001
0000001000010010
1110111111101111
0000111100011101
0011001000001111
0011001100110100
0001000000010011
1110111111111110
0001000111111111
0010001000000000
1101000111110001
1111110011001100
0001000111110000
0011010000110011
1111001000000001
0010000011100001
0011000011111111
0011001000010001
1011111011111111
1101101010111001
0000110111011110
0010001101000001
1110111100110010
0010000000011111
0010000100001111
1111000000110001
1101111011100001
1100101010011100
1111000011111111
0010001100011110
0000001000000000
0010000000010010
1111111100011111
1110111111110010
1101111111011111
0001111111101110
0000000011010001
0001001000010001
0010111100110010
0001111011110000
1111000000000001
1101111011110001
1110111011110000
0010010000100000
1011110000000000
1110000100011100
1111111111110010
1110000111101111
0000000011101111
1111111011101101
0000111011001101
0010010100100010
1101101011101110
1111111011101011
0000111100000001
0010111100010000
1101110100000001
1110111111110000
0000110111101111
0010000100100001
1101101111001110
1111110111001100
1110001011111111
1111111100101111
1110110011111110
1111110111111111
1111111111001111
0000010101000000
1100111011001110
1110000100011110
1110111100000001
0000000100000000
1111111011110000
1110000011100000
0000000000011111
1111010101000000
0001111011011111
0010111111110001
0010000100011111
1110111100000010
1111111111111111
1110000100111111
0010001000100000
0001010001010011
0011000000001111
0011000100010011
0000111100010010
0001001000010000
0001000011111111
0001000100000011
0100001100010000
0001011101110111
0011000100011110
0100000100100010
0001111100100000
0010000000000001
0010000111111111
0010001000100000
0111010101000001
1111001101110111
0000001011111111
0001000000010010
0001000000000011
0000000100100001
0010000111111110
0000111100100011
0111010000101111
0000010101110111
0010001000011110
0010001100100011
1111000000100100
1101111111110001
0001000000011110
1111000000010001
0111011001010001
1111000101010111
0001111000000001
0010001000100011
1111000000100011
1111111100010000
0010111111111110
1111111111110001
0111011001100001
0001001101000111
0001000000000001
0000000100010000
0010000000000100
1111000111101111
0001110111110001
0100111100001110
0111010101010110
0001001101000111
1101110100011111
0000001000010001
1110000100100010
1110111100010001
1110111100001101
0011001011110001
0110010001010100
0001001001000101
0001000000000000
0011000111101101
0001000100000010
0000001000010000
0000111111111110
0100001000010001
0011001101000101
0011001000110011
0000111100100001
0001000100001111
0000111100011111
1110000100000001
0001111100010000
0010000000011111
1111000100100001
0010001100001111
0010000000100000
0000111100000001
0000111000010000
0001111011111110
0001111111110010
1110000000001111
1111110100011110
0100000111111110
0001000000010000
1111111111101110
0010000100011111
1111001011111111
0000111000011111
1110111111111110
1110110011101110
0011001011111110
1110000011100001
1110111111110000
0010000011101110
0001111000100001
1101111000011111
1011110011100000
1101111011101100
1110110100001111
1111111011111111
1111111011001111
0010000000011110
0010000000010000
1110111111110001
1101111010111101
1010101011001010
1011101111001101
1100110110101011
0000111111011101
1111111111101111
1111000000100010
0001000100000001
1101111000010001
1101111011001101
1101111010111110
1110111111001111
0001111100011111
0000001000000000
1111000100101111
0000000100000001
1110001000101110
0000000100101110
1110000100011111
0000111011111111
0000111111110001
1110000011110000
0001111100000001
0010001000010001
1111001000000000
0001000111100000
1111111100000010
1111000000001110
0000111100000000
0000111000101111
0000000111110000
0000001000001111
0001001011101110
1111111100101111
1110000100100000
0001000100011111
1111000111111111
0001000100010001
0000001000100000
1111000000001111
0001111100010001
0000111100010001
1110111011101111
1111000100001111
0001111111111111
0001000100001111
0000111100010000
1111000000010001
0001111100001110
0001111000101111
1110000011110001
0001000000100001
0001000100010000
1111111011111110
0000000111101111
0001111100101110
0001000100101111
0000111111100000
0001000000001111
1101111111110001
0000000011010001
1110000100100000
0000000000011111
1111111100010010
0000111000011110
1111001100100010
0011001100100011
1101000000100011
1111111011001111
0001111000000000
0000000111110000
1111000000100000
0000000000010010
0000001000010000
0010010101000100
1110111100000010
0000000011011111
0001001000101111
0000000000011110
0001000000010000
0010000100100001
0010001100010100
0110010001010110
0010000000100110
1111111111110000
1111000011111110
0000111100101111
0001111011111111
0100001100100001
0101010000010001
0101011001010110
0000000101000100
0001001000000000
0000000100010000
1111000011110001
0001000100010000
0001001100101111
0011001000010001
0010001100010001
0100001101010100
0001001100100010
1111001000000100
0000111111110000
0001000000001110
0010010000110011
0000000000100011
0000000111111111
0110010100110100
0101010101000011
0001001000010100
1111111100000010
0010000000000000
0001010001000001
1111000000110011
0000111111101111
0101011101000100
0100001001010101
0001000100100100
0001111100010001
0011111111111111
0011000100100100
0010000100010010
1111110010111111
0101010001000011
0101010100110101
1111000100100100
0000000100010010
0011001000000001
0100001100010001
0001001101000101
1111110111100001
0010010101010001
0011010100110100
1111000000010010
0001111000100000
0001001000100001
0011001101000001
0011010101010101
1111110000000010
0010000100110001
0100001000000001
1111000011110010
1110111000010010
0000001000001110
0011000100010000
0001001101100111
1111110011100010
0000000100100001
0010001100000000
0010000000000001
0000000000010000
0001000000101111
0110000100000001
0010010001100110
0001110111000000
0000111100000011
0000000100000000
1110000011111111
1111000100100010
0000000111110000
0010001100010000
0000001001000100
0000110110101010
0010001100110010
0000000011110001
1111000000011111
0000111100000001
1111111111111111
0101000100101111
1100000000010100
1110110111001011
0000000000110011
0010111111100001
0001000011111111
0010001000000000
0010001000001111
0001001100100001
1001111000010010
0000110010011001
0000001100100011
1111000111110001
0001111011101111
0010001000011111
0001001100000011
0011010000010001
1001110000100010
0011111110111001
0010000101000100
0001000000110000
0000000011111110
0001000000010001
0100001000110000
0001001001000001
1100110000010001
0001111111011100
0001001101000101
1110111100110011
0000111111111101
1111000111111111
0001010000110000
0001001001010100
1101110011110001
0011001011011011
0011000101010011
0000000100100001
0000111111111100
0000000000000010
0011001100110001
0010000101000010
0000000000011111
0010000011100000
0011001100010011
0000000100010010
0001000011111110
0000000100000010
0001000100010000
0000001000000010
0001111111110001
0010000100100010
0010000100010010
1110111000010000
0000111011111101
0001001000001111
0001000011110000
0001001011110000
0100011000100010
0000001000110100
1110001000001111
1111000000001101
1110111100001111
1111111100010001
0001111000000001
0010000100011111
0110011101100100
0001001100110111
0000000100100000
1110000011100000
0000000111110001
1111111100001111
1111000000011111
0001001011111111
0110011100110010
1111001001010110
1111111100010000
0000111000100001
0001001000000001
0000001000000010
1110111111110010
0101000000110000
0101011100110101
0001000000110110
0011001000000000
0010000000101111
0010000100100000
0000000100001111
1111000000011110
0001000111100000
0001001000110001
0001001100000001
0011001000110001
1111111100100000
0000001000000010
0010111011110000
0000000100011110
0001000011110001
0000111111101111
0000111011111111
1110000000011111
0000111000100010
1111111100000001
0001111100000010
0000000100100010
1111001011100010
1110000011110001
1110111111101111
0001111100100001
1111111100100001
0001111111100001
1110000100011111
1110111100001111
0001111100101111
1111000100000000
0001111111100000
0000000000011110
1110001000000000
0010000100010000
0010111111111111
0000000000001110
1111000000101111
0000000000000001
0010111011110000
1111111100100001
0001000000000001
1111000000000001
0001000000001110
1110000100011111
0001000111110000
0010000111100001
1110111100000001
0010000100101110
1111001000001111
0010000100010000
0000111100000000
1111000100001110
1111000000000000
1111111011010001
0010111111110000
0000000100000001
1110001000100000
0000000100000010
0000001000010000
0000111011100010
1110000011100001
1101111111001101
1101111011110000
0000000000010001
1111111100000000
0000000100000010
0000111011110010
0000111100000000
1101111011011101
1111111111101100
1011101111101101
0001000111101101
0001001000000010
0001000000101111
1110000111100001
0000111100000000
1101110110101110
1110110111011101
0000000100010001
0000001000010000
1101110100001111
1111001000011111
0001000111100000
1101111100001111
1011110011001011
0010000011001101
0000001100110011
1110111100011111
1111110111011110
1111000011111101
0001000100100010
1100000011010000
1110101110111100
0101001000001111
0110011101110111
0001001100100011
1100111011110000
1111001011101111
1111111011110000
1100111000000001
0000101111101110
0110010101000010
0110011101110111
0010111100010011
1111111111100001
0000111011110000
1111111100001111
1101000111100000
0011000011100000
0110011100100011
0100011001110111
0000111100010000
1110111111110001
1111000111101110
0001000100100010
0000000011111111
0011000100000011
0110010000110100
0011010101110111
0000111100000000
1110000100010010
1111111100010000
1111111100000001
0010001100000010
0001001000100100
0101010000110000
1111001101110111
0010001000000000
1111000000010000
0010111000000001
0010000100100001
0001010000010011
0000010101010100
0100000011100000
0011010001100111
0001001100001110
1111001000110001
0001111111111111
0000111000100000
0100010100100100
1111001101010100
0101110111001100
0010010001110111
0011001100001110
0000111100110010
1111000111110000
0010111011110001
0011001100100010
1100111100100001
0110111010011011
0010010101100111
0000001100110001
1110111000010000
1110111011101101
0000000111100000
1111001100110010
1100111000001111
0010000110011001
0000001101000110
1111001000010000
1110111100000001
1111000000001110
0001000000100001
1111001000000001
1011110111111111
0010000111101001
0001000100110011
1101110111101111
1100111011011110
1110000111111110
1110000000101111
0000111111111110
1101110111001110
0010001011011110
0001000000100011
1110110011111101
1011110111101100
0010111111001011
0000000111111110
1101110100000001
1111000000001111
0011001100000000
0000000000100011
1110111011101101
1010111010111011
0000000000001100
0000111111110000
1101110100000000
1111000011111110
0110010000100000
1111001000100011
0000111111100000
1011110011011011
1110111011101010
1110111111110010
1100110011011101
1110000011101111
0110010100111111
1101000100000010
1111111011010000
1011100111101011
1110111000001110
1111000011110001
1110111011101110
1110111111101111
0100010100001111
1110000000010010
1101111111110000
1110110010101100
1111000011101111
1101111000010010
1110110111101110
1111000011111110
0001001000110000
1101000100000001
1100111111001111
1111111011001011
0000111000001110
0000111100010000
0000000011011110
1110000111100000
0000001100011111
1101111000100000
1110110011101101
1101111011010000
0001000011110001
0000000011111111
0000000011100000
1111000100000001
1110111000011111
0000111100000010
1101111111111111
0000111011101110
0001111011100001
0000111100010001
0000000011110001
0001000000000010
0000000000011110
0000111000011111
1110110111101100
0000000011100001
1111000100001111
1110000011110001
0000000000011110
0010000000011111
1111111011111111
1110001011111110
0010000011101111
1111001100100011
1111111111110001
1111000100100001
0011000000101110
0000000100010000
0000000111100010
0010000111111110
0010010000010001
1111000100110011
1111111000011110
0000111011110001
0001001111110010
0011010001000010
0100010100100010
0110011101010100
0100010101100111
0001000100010010
0000001000000001
0000111111110001
1111111000001111
0010001100110001
0101011001000011
0110010101000110
0010010000010101
0001001000000010
0001111100011111
0000000000010001
0001000111111111
0001000011110010
0010000100010010
0001111100101111
0000000000100010
1111111000010010
0001000000000000
1111111100001110
0001001011100000
1111000111111111
0001001011110000
0000000000001110
0000000011110001
1110111100010010
0000000011111111
0001000100010000
0001000111100010
0001000100010000
1110111100001111
1111000000001111
1111000011111110
1110000111110010
1110111000001110
0010000100011110
0000111111101111
1111000000010001
1111001000111111
0011001100100010
0001000000010001
0001111100101111
0001111100000001
1111111111110000
1110111100000000
0001000011110001
0011010100110100
0010010101000011
0001000000010010
0001001000010000
1111000111111111
0001111111100010
0010001011111110
0110010101010011
0101011001010011
0101010101010110
0010001001000010
0000111011100000
1110000000001111
1110000000011111
0011001000010001
0100001101100001
0100010101010100
0110010101010011
0010010000100010
1110000011101111
1111111011101111
0001001011100010
0010000100000001
0010010100100100
0100010100100100
0100010101000100
0000000000010011
1111000111100000
0001111100010001
0001000100010000
0010001000101111
0010000100100011
0101001000110011
0011001000110011
0001111100110010
1111111000010000
0000000111100000
0010000111111110
0001000000000010
1111111100000010
0001000011111111
0001000000000001
1111000111111110
1101110111111101
1111000111101011
0010111100010010
0000111111110001
0001111111101111
1111111000000000
0001111000000010
0000111111100000
1010111111101111
1110111111101101
0001111100000001
0001000000000010
1110000111110000
1101111111001101
1111000000001100
0001000100001110
1011111111100001
0000111110111001
0001000011100000
0001000100010001
0000111011100001
1100110111011011
0001110111101100
0000001100110000
1011110111101111
1111111111101100
1110111100001110
1110000100001110
1111111011101110
1001110010101100
0000111011011100
0010001100100001
1100111100000001
0001111111101110
1111111011100001
0000110111010000
1100111111111110
1101101110111101
0001111011011101
0011001000100010
1110000111110100
0000000111101110
1111111000000001
1111110111111110
1011110111001100
0001000011111100
1111000001000001
0001001100010011
0000001100010001
0001000011110010
1110000000010001
1101110111011111
0001000011111111
0111010100100001
0011010001100100
0001000001000001
0001111100000001
0001111000010011
1111111000000001
1110111011110000
0011000111101111
0111011101010011
0011010001000111
1110001011110011
1110111000000000
0000000000010001
1111001011110010
0001001000101111
0100000000010010
0111011101110101
0001001001100110
1111111100000011
0000111111001101
1110000100101111
1111000100011110
0001000000001111
0110010001000100
0111011101110111
0010001100110111
1111111100000011
0001000000011111
0010000100110011
0011000100011111
0000000000010000
0101010001000010
0110011101110111
0100001101100110
0000000000010011
0010000100001111
1110000001000010
0010000000000001
0000001100000011
0100010001000011
0011011001010110
0011001100110001
0001001001000001
0001001100110010
0001000000110100
0001000000000001
0000000000110010
0100010100100010
0001010001100101
0010010000100010
0100010001000011
0101001100100100
1110001000010100
0010000000001111
0001000000110011
0101010100010010
0001001101000110
0111010101000011
0100010001010100
0001001001010011
0001111100010100
0010111111100001
0100000101000010
0010001100010001
0001001000100000
0100010001010011
0110010101110100
0001001100110011
1110111100100000
0010001000011111
0001001000110010
1111000101000000
0001001000010001
0110010000100000
0011011101000011
0010000100100100
0001000100010000
0011111111101111
0001000100110010
0000000000000010
0001000011110000
0011000100110011
0011001101010100
0001001101000011
0000000100000010
1111000100000000
0000000100000010
1110001000110001
1110000111110010
0011001000100000
0011001000110100
0010000100010011
0010000011101111
1111000100000001
0000111111100010
0001000000101111
0001000011100000
1110111011111101
0100001101010010
1111111100100011
1111111100000001
0001000000000010
0001000000010000
0000110011100000
0000000011101110
1111111111111110
0000111111110010
0010001000001111
1111000100011111
0000000100000010
1111110100000000
0000110111011100
1101111111011101
1100111111011100
0000000100011111
0000000000010000
0001000100010001
0000111111100001
0000111111110000
1111110100001110
1101111100000001
1110110111010000
0000111000011110
1110111100001110
1111000000011111
0001001011110001
1111111011100001
1111111111100010
1110111100000001
1110111111100000
0000001011100000
1111001011110001
1111000011101111
0000000011101110
0001111111111111
0001111100100010
1110000000101111
1111111000000001
0010111011110000
1110111111110001
0010111100100000
0001001000000000
1111000000010001
0010000100000000
0000111000001110
0000111011110000
1111000100001110
0010111111110000
1111000000100010
0001000000000000
0000000111111111
0010001011111111
1111111000011111
0010000011101110
0000000011110000
1111000011111111
0001111100001111
0010000100011110
0001111100010001
1110000111101111
0000000100010000
0000111100001111
0010111100100000
0001111111110001
0001111100011111
0000111111111111
1111000100001111
1110000100100010
1111000111100001
0000111111011111
0001001000101111
0000000000100001
1111000011110001
1111000100010010
1111000000000001
0001000100000001
1110110011010000
1110111011011111
0000000111101101
0010001000100000
0000000011110010
1110001000011111
0011001111110001
1111000000100011
1101110011111110
1011110011011101
1111111011101111
0000001000100001
1111000000000001
0010000100101110
0001000100100000
0001000011110100
1111111000001110
1101110111011100
0000111100001110
0000000100101111
0001111011110000
0001111100010010
0001001000010000
1111111000110000
1110111000001111
1101101010111011
0000111011101111
1111000000110001
1111111100011111
0001001000000010
1111000000000001
0000111011110001
0000000000101110
1100101011001101
0000111011101110
0000111100000010
1111111011011110
0001000011100001
0000001000010000
1111110100000000
1110111000100000
0000110110111101
1111000111111110
1101111000000000
1111111010111011
0001000011110001
0000000100001111
1111111000001101
1110001000010000
0001000011001101
0001000100000011
1011111100011110
0000111010111100
1111001011110001
1101111100101111
0010111111111111
1110000100010010
0010001111111101
0000001000110101
1100110100010001
1111111011011110
1111111111110000
1110000100010000
0010001000011110
1110001000110000
0011000111101011
0001000100110101
0000000100100001
0000000000001100
0001000100000001
0010000100100010
0010000000000001
1100111000010001
0100010100101100
0100001001010100
0001000000010010
1111111011111111
1110000000010010
0010001100000001
0010000101000010
1101111000010010
0111001100101101
0010011001000111
0011000001000011
0000000111100001
1110111111110001
0100001000000011
0100001101100111
1110110100010001
0101011100101110
0111010101100110
0000010100100101
0010000011111111
0000111100010010
0111001101000010
0101010000110111
1111111100010000
0110011100110101
0111011101110111
0010001101010101
0010000000100010
0001111000011111
0101001100111111
0011010000110101
0011000011110011
0110010101110101
0110011001110111
0000000100100100
0001111011111111
1111000100000001
0110001000100000
0001001100110101
0110000000000000
0110011101110110
0100010101100101
0010000100100100
0000001011100001
0010000011110001
0000000000010000
1110000000000010
0011000111011110
0100010101100110
0000010000100100
1110000100000001
0001000100010000
0010001000010001
1110111111111110
1100111111101110
0001000011001101
0011001101100110
0000000000000001
1111111011101110
0001000011100000
1110111111110001
1110111111011111
1011110110111011
0001111110111010
0001010101100011
1110111111100001
1101110011111110
1110000100010001
0001000111110001
1101111100001110
1011101110101101
0000110111101001
0010000101000100
1101110011111111
1110111011011101
1111111111101110
0001111111101110
1100111111110000
1011101111101100
1111111011101101
0001001000110010
1110110011110000
0000110011001101
0001001000101111
0000000000010010
1101111111110001
1110111011101110
1100110111011101
1101000011110000
1111110111101110
1110000111101111
0001111111111110
0010111011100000
1110000111100000
1100000000001111
1010101011011100
1110111111011101
1110110111011110
1110111111101101
1111000011111111
0010001000010001
1111000100100010
1101111111110000
1101111010111101
1111111111101010
0000000000001101
1110111111101111
0010000000000001
0001001011111111
0011000000110001
0001000000100011
0000000011110000
1101111111101101
0000111000000000
0010000100010000
0010111011100001
0001000100100001
0001001000001111
0010000100010000
1101111100001111
1111110111010000
1111111111111100
0001111011111110
0000000111110010
0010000100100001
0000111100000000
0000111111101111
1110111011011110
1111110100001110
1110111111111101
1110111100010001
0010000100000001
0001000011111111
0010111000000010
1111001000010000
0001000011100000
0010000000000001
0000001011111111
0001111100011111
0000000100100001
1111000111111111
0001111111110001
0001001000011111
0001111100010001
0010111000100001
0000111100010000
0001000000100001
0010000000010001
1110000111110000
1111000100010001
1111111100010001
1110111111111111
0000000100010010
0000000011111111
1111111000010000
0010000011111111
0000000000000001
0010111100000000
1110000111101110
1100110111011101
1101111011111111
0000000111010000
0000111011101101
0000001000011110
0000111111100010
1110111111111111
1110110100010001
1111110111101011
1101110111110000
1101111111011101
1111000111101110
1111111011110000
1111000011110000
1110001000011111
1101111011110001
0010111000001111
1111000100010011
0000111000011111
1110000011111111
0000000000010001
0010111000101111
1111000000100010
1111000000010010
0001000100000000
0000001000100100
1111000111110010
1111000111111111
1111000100000000
1110000111100000
0010000000000001
0001111000100000
0000000000000000
1111000111110001
1111111000001110
0000111000010001
0001000000000000
1111000011110001
0010001000001111
1111000100100001
1111000011100000
1111000011010001
1110001000100010
1110000000011111
0000111011101110
0000111111110010
0001001001000001
0001001001000001
1111110111110000
0000000011001100
0001000000010011
1101111111100000
0001000111011010
0001000000000000
0010010000110011
0000000100010010
1111111100001111
0011001000001111
1111000001000011
1100111011101111
0010110111101010
0011000011101111
0100001000100101
1101000111100000
1111111011101110
0111011000100001
0000000101100110
1001101011011111
1110111010101001
0001000000101111
0000000100100010
1110110111111110
0010110111101111
0111011101110001
0001010001100111
1001101011001101
0010111010111010
0011001000000001
1110111000000010
1111110111101110
1111111111100000
0111011101010100
0001010001110111
1100101011000000
0010110111101011
0001000011110000
1101111100000011
1110000011101111
0000111111110000
0111011101110011
0010000101000111
1110110111011110
1110111111111110
0001001000101111
0000111000000001
0000000100010001
1110000011001110
0111011101000000
1110000101000101
1110111011100000
0001000000011111
1111111100000001
1110111100010000
1110000100011110
1111111011101110
0111011101011111
0001000100100111
0000111111010001
0010111100001111
0010000100101111
0001111011110011
1110111100100000
1110111011111110
0110011101101111
0010000100110110
0001000000010010
1110000000011110
1111000111110010
1111000111110000
1111111100110000
0001111011011111
0011011001110101
0001010001010101
0000111000000000
1111001000101110
0010000011110010
1111000011110011
1100000100000000
0100111100001111
0101010101010101
0000001101000011
1110111100010000
0001000111101110
0010000011111110
1111111111100000
1101111100011111
0100000011101110
0000001001000110
0010111100010010
1111111000000000
1110111011010000
0001111100010010
1100110011111111
1110000011101111
0011111111101011
0000000100110100
1110111011011111
1110111111110001
1111001000001100
1111111100000000
1100110011110001
1100110111011100
0010000011111011
1100111100000100
1110111011011110
1111110011011101
0010111100001101
0010000100101111
1011101111100001
1100101110111011
0010111011101100
1111111011110010
1110110110111110
1110111011101100
0000000000011100
1111000000101111
1011110100000001
1011110111011100
1111000011111101
1110111111101111
1100101111101101
1111111111001101
0010000111111111
0001000100010000
1101111111100001
1110110100001100
0000111100001110
0010001000001111
1101111111011111
1101101111011110
0000111100000000
0001111100000000
0000000000000001
1111111111111110
1110000011100001
0010000100010000
1111111100001111
1110111011001101
1111000000001110
0001000100000001
0000000011110001
0000000000010000
0000111111111111
0011010101000010
1110111100010010
0001111100001111
0001111111111111
0001111111110001
0010001000100000
0010001000000001
0000000100000000
0010010000100011
1110111000010001
0001000100000000
1111000000001110
0000001000101110
0010000000110010
0001000100000001
0000110111100000
0001000100010001
1111111111010000
1110000111101101
1111111100001111
0001001000000001
0011000100101111
0001001100100000
1110111111110010
1111111100011111
0000000011111110
1111111100010000
0010000100010000
0000111000010000
1111000111100010
0011001000101111
0000001000010011
0001000000000001
0000000000000010
0010000000010000
1111001000000010
0001000100011111
0000000111101110
0001000011110010
0000000100000010
0011111100000001
0010000011110000
1111000100101111
1111000000000000
1111000100011110
0000000011111110
0001111000010010
0010111111110000
0010001011111111
0010111111110001
0000111100010001
0010000100101110
0000001011100010
1111000111101111
1110000100010000
1110111000010001
0001000011111111
1110000111111110
1111111100001110
1110000111111111
0001111100001111
1111000000010000
0000110111110000
1111000011011111
1111000011000000
0001111011111101
1111000100010000
0001001000101111
1111001011110010
0001111111111111
1111111100010001
1101000011011110
1111111011010000
0000111011110000
0000000111110000
0000001000011110
0001111000100000
1110111111110010
1111110111111111
1111000011111110
1111000011111110
1110111011100001
0001111011111111
1111000111111110
1111000000011110
0000111100100010
0001000000000000
0000000111100001
1111111111000000
1101111111001011
0010000111101101
0000000100010001
0000000100001111
0001000000100010
0010000111100001
0001001000010010
0000000100100010
0001111100011111
0010111111101111
0000001000110010
1111001000100000
0001001000101111
0001001000001111
0000001100100000
0001111100010011
0000111100000011
0010001011101111
1111001000100010
1111111111100000
0000001000000000
0011000100111111
0011001001000011
0001000100110100
0001000000000001
0001001011110011
0000000100010101
1111000000010001
0000111100000001
0001001111110000
0011010100100100
0010001000100100
0010000100110011
0011001001000100
1110111101010100
0010000000000000
1111001000011110
0011001100100001
0010010100110011
0010001001000001
0100001100110001
0011010001000011
0001000001000100
0001001000011110
0010111100010010
0110010100110010
0101001100110100
0010010000110011
0100000100100100
0011000100010010
0000000100110011
0001111000010000
0001001100000010
0011001100110010
0011001101010011
0110010101010101
0001000100100100
1111000011011111
1111001000110001
0001000100010001
0001000100110001
0111011001100011
0111011101000101
0100010101100110
0001000100010011
1100101110111111
1110000100000000
1111111100011110
0100001101000001
0110001101010110
0111010101100101
0101011001110111
1101111100100101
1011101111011100
0001000000001101
0001001000100010
0011010000010001
0110001001010010
0111011001000101
0101011001110111
0001000101000010
1100101011001101
0001000111101011
0010000111111111
1111000100000001
0011001000000000
0100000100000010
0010010101010111
0000001001010100
1011101111010000
1110111100001111
0000111100011111
1111111111100001
1111000011010000
0011010000001111
0010001001000010
0010000001000100
1101111100000000
0001000111111100
0001000000001111
1110111111110010
1011110011001101
0010111100001011
0011010000110001
1111111100010011
1110111111110000
1110000000001111
0001000011110010
1110111111100000
1001110011001100
0000111110011010
0010000100010001
1110000100100001
1101111111101111
1111000011111101
0000000111110001
1111000111111111
1001101010111110
1100110010011001
0011001000100001
0000111100001111
1111111111110001
0000000111001111
0011000111111110
0011111100100001
1011110011100000
1100101110111001
1111000000011110
0001000000011111
1100000000001110
1111000000001111
0010111000000010
1111000000000010
1001110011100000
1110111010101001
1110000000011111
0001111100101111
1111111111100001
1111111100010000
0011000000010001
0010000000110000
1100111011100010
1101101110101100
1111111111111111
1110000111111110
1111000011101111
0010000111111111
0001000111100010
1111111111110001
1100111000011111
1110110011001100
1111111011111111
0000111100010001
1110111000011110
0000000100000000
0010000111111111
0000000000010010
0001111100010001
1111111100001111
1111000000101101
0000111111111111
0000111011101110
0000000011110000
0000001011110001
1110001000000010
0010000100011111
0000000011110010
0001000100001111
0001111100010010
0000000011100010
0000111011110001
0000000111100001
0001000100010011
0100001000001111
0010001000100010
0011001000100010
0000001000100011
0000111100100001
1111001000010000
1111000111101111
0011001000001111
0100001100110100
0100001100110100
0101010100100011
0011000101000100
0001111111110011
0010001011110001
0000111100001111
0010111111111111
0100010101010001
0100011101110111
0101010101000111
0100001101010011
0000001111110000
0010000011110001
0000000000100010
0010111111110001
0000000000110010
0010001000110100
0001001000010001
1111001000010010
0010111100100001
0000001000011110
0000000100011111
1111111000101111
